WIDTH=32;
DEPTH=512;

ADDRESS_RADIX=HEX;
DATA_RADIX=HEX;

CONTENT BEGIN
	0	:	ffff0000;
	1	:	ffff0000;
	2	:	ffff0000;
	3	:	00020000;
	4	:	00020000;
	5	:	00020000;
	6	:	ffff0000;
	7	:	ffff0000;
	8	:	ffff0000;
	9	:	fffe0000;
	A	:	fffe0000;
	B	:	fffe0000;
	C	:	00010000;
	D	:	00010000;
	E	:	00010000;
	F	:	fffe0000;
	10  :	fffe0000;
	11	:	fffe0000;
	12	:	fffd0000;
	13	:	fffd0000;
	14	:	fffd0000;
	15	:	00030000;
	16	:	00030000;
	17	:	00030000;
	18	:	fffd0000;
	19	:	fffd0000;
	1A	:	fffd0000;
	1B	:	ffff0000;
	1C	:	00020000;
	1D	:	ffff0000;
	1E	:	ffff0000;
	1F	:	00200000;
	20	:	ffff0000;
	21	:	ffff0000;
	22	:	00020000;
	23	:	ffff0000;
	24	:	ffff0000;
	25	:	00020000;
	26	:	ffff0000;
	27	:	ffff0000;
	28	:	00020000;
	29	:	ffff0000;
	2A	:	ffff0000;
	2B  :	00020000;
	2C	:	ffff0000;
	2D	:	ffff0000;
	2E	:	00020000;
	2F	:	ffff0000;
	30	:	ffff0000;
	31	:	00020000;
	32	:	ffff0000;
	33	:	ffff0000;
	34	:	00020000;
	35	:	ffff0000;
	36	:	00001c72;
	37	:	00001c72;
	38	:	00001c72;
	39	:	00001c72;
	3A	:	00001c72;
	3B	:	00001c72;
	3C	:	00001c72;
	3D	:	00001c72;
	3E	:	00001c72;
	3F	:	00001c72;
	40	:	00001c72;
	41	:	00001c72;
	42	:	00001c72;
	43	:	00001c72;
	44	:	00001c72;
	45	:	00001c72;
	46  :	00001c72;
	47	:	00001c72;
	48	:	00001c72;
	49	:	00001c72;
	4A	:	00001c72;
	4B	:	00001c72;
	4C	:	00001c72;
	4D	:	00001c72;
	4E	:	00001c72;
	4F	:	00001c72;
	50	:	00001c72;
	[51..1FF] : 00000000;
END;
