WIDTH=32;
DEPTH=512;

ADDRESS_RADIX=HEX;
DATA_RADIX=HEX;

CONTENT BEGIN
	0	:	00010000;
	1	:	00020000;
	2	:	00030000;
	3	:	00040000;
	4	:	00050000;
	5	:	00060000;
	6	:	00070000;
	7	:	00080000;
	8	:	00090000;
	9	:	000A0000;
	A	:	000B0000;
	B	:	000C0000;
	C	:	000D0000;
	D	:	000E0000;
	E	:	000F0000;
	F	:	00100000;
	10  :	00110000;
	11	:	00120000;
	12	:	00130000;
	13	:	00140000;
	14	:	00150000;
	15	:	00160000;
	16	:	00170000;
	17	:	00180000;
	18	:	00190000;
	19	:	001A0000;
	1A	:	001B0000;
	1B	:	001C0000;
	1C	:	001D0000;
	1D	:	001E0000;
	1E	:	001F0000;
	1F	:	00200000;
	20	:	00210000;
	21	:	00220000;
	22	:	00230000;
	23	:	00240000;
	24	:	00250000;
	25	:	00260000;
	26	:	00270000;
	27	:	00280000;
	28	:	00290000;
	29	:	002A0000;
	2A	:	002B0000;
	2B  :	002C0000;
	2C	:	002D0000;
	2D	:	002E0000;
	2E	:	002F0000;
	2F	:	00300000;
	30	:	00310000;
	31	:	00320000;
	32	:	00330000;
	33	:	00340000;
	34	:	00350000;
	35	:	00360000;
	36	:	00370000;
	37	:	00380000;
	38	:	00390000;
	39	:	003A0000;
	3A	:	003B0000;
	3B	:	003C0000;
	3C	:	003D0000;
	3D	:	003E0000;
	3E	:	003F0000;
	3F	:	00400000;
	40	:	00410000;
	41	:	00420000;
	42	:	00430000;
	43	:	00440000;
	44	:	00450000;
	45	:	00460000;
	46  :	00470000;
	47	:	00480000;
	48	:	00490000;
	49	:	004A0000;
	4A	:	004B0000;
	4B	:	004C0000;
	4C	:	004D0000;
	4D	:	004E0000;
	4E	:	004F0000;
	4F	:	00500000;
	50	:	00510000;
	[51..1FF] : 00000000;
END;
